// Copyright 2024 The IREE Authors
//
// Licensed under the Apache License v2.0 with LLVM Exceptions.
// See https://llvm.org/LICENSE.txt for license information.
// SPDX-License-Identifier: Apache-2.0 WITH LLVM-exception

// The configuration used for executable compilation.
// This specifies the device configurations that support this custom kernel.
#rocm_target = #hal.executable.target<"rocm", "rocm-hsaco-fb", {target_arch = "gfx1100", ukernels = "none"}>

module attributes {transform.with_named_sequence} {
  util.func private @argmax_1d_f32_entry_point(%arg0: tensor<1x32000xf32>) -> tensor<1xi64> {
    %c1 = arith.constant 1 : index
    %dim = tensor.dim %arg0, %c1 : tensor<1x32000xf32>
    // Note: This is not safe if the dim size exceeds INT32_MAX. To pass a 64
    // bit value it must be broken down into two 32-bit values for the high and
    // low bits.
    %dim_i32 = arith.index_cast %dim : index to i32
    // Inline external dispatch that conforms to the ABI that the kernel
    // requires. This is the primary reason for the surrounding function as
    // details like tensor shape and push constants need to line up after
    // splicing in the custom dispatch. This allows the kernel author to manage
    // such details by hand without needing the rewrite patterns to worry about
    // things like order of push constants.
    %4 = hal.dispatch.extern "main"[%dim](%dim_i32, %arg0) : (i32, tensor<1x32000xf32>) -> tensor<1xi64>
      count(%device: !hal.device, %workload: index) -> (index, index, index) {
        %c1_0 = arith.constant 1 : index
        hal.return %c1_0, %c1_0, %c1_0 : index, index, index
      }
      layout(#hal.pipeline.layout<push_constants = 1, sets = [
        <0, bindings = [
            <0, storage_buffer, ReadOnly>,
            <1, storage_buffer>
        ]>
      ]>)
      bindings([
        #hal.interface.binding<0, 0>,
        #hal.interface.binding<0, 1>
      ])
      objects({
        #rocm_target ordinal(0) = [
          #hal.executable.object<{
            data = dense<"0x7f454c460201014003000000000000000300e0000100000000000000000000004000000000000000186b0000000000004100000040003800090040000f000d000600000004000000400000000000000040000000000000004000000000000000f801000000000000f80100000000000008000000000000000100000004000000000000000000000000000000000000000000000000000000002000000000000000200000000000000010000000000000010000000500000000200000000000000020000000000000002000000000000080470000000000008047000000000000001000000000000001000000060000008067000000000000807700000000000080770000000000007000000000000000800800000000000000100000000000000100000006000000f067000000000000f087000000000000f087000000000000000000000000000001000000000000000010000000000000020000000600000080670000000000008077000000000000807700000000000070000000000000007000000000000000080000000000000052e574640400000080670000000000008077000000000000807700000000000070000000000000008008000000000000010000000000000051e57464060000000000000000000000000000000000000000000000000000000000000000000000000000000000000000000000000000000400000004000000380200000000000038020000000000003802000000000000741a000000000000741a0000000000000400000000000000070000005d1a000020000000414d44475055000083ae616d646873612e6b65726e656c7394de0012a52e61726773dc001885ae2e616464726573735f7370616365a6676c6f62616ca52e6e616d65b2696e7075744275666665722e636f65726365a72e6f666673657400a52e73697a6508ab2e76616c75655f6b696e64ad676c6f62616c5f62756666657284a52e6e616d65ac696e7075745f6f6666736574a72e6f666673657408a52e73697a6508ab2e76616c75655f6b696e64a862795f76616c756585ae2e616464726573735f7370616365a6676c6f62616ca52e6e616d65b36f75747075744275666665722e636f65726365a72e6f666673657410a52e73697a6508ab2e76616c75655f6b696e64ad676c6f62616c5f62756666657284a52e6e616d65ad6f75747075745f6f6666736574a72e6f666673657418a52e73697a6508ab2e76616c75655f6b696e64a862795f76616c756584a52e6e616d65ad726564756374696f6e53697a65a72e6f666673657420a52e73697a6508ab2e76616c75655f6b696e64a862795f76616c756583a72e6f666673657428a52e73697a6504ab2e76616c75655f6b696e64b468696464656e5f626c6f636b5f636f756e745f7883a72e6f66667365742ca52e73697a6504ab2e76616c75655f6b696e64b468696464656e5f626c6f636b5f636f756e745f7983a72e6f666673657430a52e73697a6504ab2e76616c75655f6b696e64b468696464656e5f626c6f636b5f636f756e745f7a83a72e6f666673657434a52e73697a6502ab2e76616c75655f6b696e64b368696464656e5f67726f75705f73697a655f7883a72e6f666673657436a52e73697a6502ab2e76616c75655f6b696e64b368696464656e5f67726f75705f73697a655f7983a72e6f666673657438a52e73697a6502ab2e76616c75655f6b696e64b368696464656e5f67726f75705f73697a655f7a83a72e6f66667365743aa52e73697a6502ab2e76616c75655f6b696e64b268696464656e5f72656d61696e6465725f7883a72e6f66667365743ca52e73697a6502ab2e76616c75655f6b696e64b268696464656e5f72656d61696e6465725f7983a72e6f66667365743ea52e73697a6502ab2e76616c75655f6b696e64b268696464656e5f72656d61696e6465725f7a83a72e6f666673657450a52e73697a6508ab2e76616c75655f6b696e64b668696464656e5f676c6f62616c5f6f66667365745f7883a72e6f666673657458a52e73697a6508ab2e76616c75655f6b696e64b668696464656e5f676c6f62616c5f6f66667365745f7983a72e6f666673657460a52e73697a6508ab2e76616c75655f6b696e64b668696464656e5f676c6f62616c5f6f66667365745f7a83a72e6f666673657468a52e73697a6502ab2e76616c75655f6b696e64b068696464656e5f677269645f64696d7383a72e6f666673657478a52e73697a6508ab2e76616c75655f6b696e64b668696464656e5f686f737463616c6c5f62756666657283a72e6f6666736574cc80a52e73697a6508ab2e76616c75655f6b696e64b968696464656e5f6d756c7469677269645f73796e635f61726783a72e6f6666736574cc88a52e73697a6508ab2e76616c75655f6b696e64ae68696464656e5f686561705f763183a72e6f6666736574cc90a52e73697a6508ab2e76616c75655f6b696e64b468696464656e5f64656661756c745f717565756583a72e6f6666736574cc98a52e73697a6508ab2e76616c75655f6b696e64b868696464656e5f636f6d706c6574696f6e5f616374696f6e83a72e6f6666736574ccf0a52e73697a6508ab2e76616c75655f6b696e64b068696464656e5f71756575655f707472b92e67726f75705f7365676d656e745f66697865645f73697a6500b62e6b65726e6172675f7365676d656e745f616c69676e08b52e6b65726e6172675f7365676d656e745f73697a65cd0128a92e6c616e6775616765a84f70656e434c2043b12e6c616e67756167655f76657273696f6e920200b82e6d61785f666c61745f776f726b67726f75705f73697a65cd0400a52e6e616d65ad6172676d61785f463332493332bb2e707269766174655f7365676d656e745f66697865645f73697a65cca0ab2e736770725f636f756e7424b12e736770725f7370696c6c5f636f756e742da72e73796d626f6cb06172676d61785f4633324933322e6b64b82e756e69666f726d5f776f726b5f67726f75705f73697a6501b32e757365735f64796e616d69635f737461636bc2ab2e766770725f636f756e7420b12e766770725f7370696c6c5f636f756e743baf2e7761766566726f6e745f73697a6520b92e776f726b67726f75705f70726f636573736f725f6d6f646501de0012a52e61726773dc001885ae2e616464726573735f7370616365a6676c6f62616ca52e6e616d65b2696e7075744275666665722e636f65726365a72e6f666673657400a52e73697a6508ab2e76616c75655f6b696e64ad676c6f62616c5f62756666657284a52e6e616d65ac696e7075745f6f6666736574a72e6f666673657408a52e73697a6508ab2e76616c75655f6b696e64a862795f76616c756585ae2e616464726573735f7370616365a6676c6f62616ca52e6e616d65b36f75747075744275666665722e636f65726365a72e6f666673657410a52e73697a6508ab2e76616c75655f6b696e64ad676c6f62616c5f62756666657284a52e6e616d65ad6f75747075745f6f6666736574a72e6f666673657418a52e73697a6508ab2e76616c75655f6b696e64a862795f76616c756584a52e6e616d65ad726564756374696f6e53697a65a72e6f666673657420a52e73697a6508ab2e76616c75655f6b696e64a862795f76616c756583a72e6f666673657428a52e73697a6504ab2e76616c75655f6b696e64b468696464656e5f626c6f636b5f636f756e745f7883a72e6f66667365742ca52e73697a6504ab2e76616c75655f6b696e64b468696464656e5f626c6f636b5f636f756e745f7983a72e6f666673657430a52e73697a6504ab2e76616c75655f6b696e64b468696464656e5f626c6f636b5f636f756e745f7a83a72e6f666673657434a52e73697a6502ab2e76616c75655f6b696e64b368696464656e5f67726f75705f73697a655f7883a72e6f666673657436a52e73697a6502ab2e76616c75655f6b696e64b368696464656e5f67726f75705f73697a655f7983a72e6f666673657438a52e73697a6502ab2e76616c75655f6b696e64b368696464656e5f67726f75705f73697a655f7a83a72e6f66667365743aa52e73697a6502ab2e76616c75655f6b696e64b268696464656e5f72656d61696e6465725f7883a72e6f66667365743ca52e73697a6502ab2e76616c75655f6b696e64b268696464656e5f72656d61696e6465725f7983a72e6f66667365743ea52e73697a6502ab2e76616c75655f6b696e64b268696464656e5f72656d61696e6465725f7a83a72e6f666673657450a52e73697a6508ab2e76616c75655f6b696e64b668696464656e5f676c6f62616c5f6f66667365745f7883a72e6f666673657458a52e73697a6508ab2e76616c75655f6b696e64b668696464656e5f676c6f62616c5f6f66667365745f7983a72e6f666673657460a52e73697a6508ab2e76616c75655f6b696e64b668696464656e5f676c6f62616c5f6f66667365745f7a83a72e6f666673657468a52e73697a6502ab2e76616c75655f6b696e64b068696464656e5f677269645f64696d7383a72e6f666673657478a52e73697a6508ab2e76616c75655f6b696e64b668696464656e5f686f737463616c6c5f62756666657283a72e6f6666736574cc80a52e73697a6508ab2e76616c75655f6b696e64b968696464656e5f6d756c7469677269645f73796e635f61726783a72e6f6666736574cc88a52e73697a6508ab2e76616c75655f6b696e64ae68696464656e5f686561705f763183a72e6f6666736574cc90a52e73697a6508ab2e76616c75655f6b696e64b468696464656e5f64656661756c745f717565756583a72e6f6666736574cc98a52e73697a6508ab2e76616c75655f6b696e64b868696464656e5f636f6d706c6574696f6e5f616374696f6e83a72e6f6666736574ccf0a52e73697a6508ab2e76616c75655f6b696e64b068696464656e5f71756575655f707472b92e67726f75705f7365676d656e745f66697865645f73697a6500b62e6b65726e6172675f7365676d656e745f616c69676e08b52e6b65726e6172675f7365676d656e745f73697a65cd0128a92e6c616e6775616765a84f70656e434c2043b12e6c616e67756167655f76657273696f6e920200b82e6d61785f666c61745f776f726b67726f75705f73697a65cd0400a52e6e616d65ad6172676d61785f463332493634bb2e707269766174655f7365676d656e745f66697865645f73697a65ccc0ab2e736770725f636f756e7424b12e736770725f7370696c6c5f636f756e742ea72e73796d626f6cb06172676d61785f4633324936342e6b64b82e756e69666f726d5f776f726b5f67726f75705f73697a6501b32e757365735f64796e616d69635f737461636bc2ab2e766770725f636f756e7420b12e766770725f7370696c6c5f636f756e744caf2e7761766566726f6e745f73697a6520b92e776f726b67726f75705f70726f636573736f725f6d6f646501de0012a52e61726773dc001685ae2e616464726573735f7370616365a6676c6f62616ca52e6e616d65b2696e7075744275666665722e636f65726365a72e6f666673657400a52e73697a6508ab2e76616c75655f6b696e64ad676c6f62616c5f62756666657285ae2e616464726573735f7370616365a6676c6f62616ca52e6e616d65b36f75747075744275666665722e636f65726365a72e6f666673657408a52e73697a6508ab2e76616c75655f6b696e64ad676c6f62616c5f62756666657285ae2e616464726573735f7370616365a6676c6f62616ca52e6e616d65b4726564756374696f6e53697a652e636f65726365a72e6f666673657410a52e73697a6508ab2e76616c75655f6b696e64ad676c6f62616c5f62756666657283a72e6f666673657418a52e73697a6504ab2e76616c75655f6b696e64b468696464656e5f626c6f636b5f636f756e745f7883a72e6f66667365741ca52e73697a6504ab2e76616c75655f6b696e64b468696464656e5f626c6f636b5f636f756e745f7983a72e6f666673657420a52e73697a6504ab2e76616c75655f6b696e64b468696464656e5f626c6f636b5f636f756e745f7a83a72e6f666673657424a52e73697a6502ab2e76616c75655f6b696e64b368696464656e5f67726f75705f73697a655f7883a72e6f666673657426a52e73697a6502ab2e76616c75655f6b696e64b368696464656e5f67726f75705f73697a655f7983a72e6f666673657428a52e73697a6502ab2e76616c75655f6b696e64b368696464656e5f67726f75705f73697a655f7a83a72e6f66667365742aa52e73697a6502ab2e76616c75655f6b696e64b268696464656e5f72656d61696e6465725f7883a72e6f66667365742ca52e73697a6502ab2e76616c75655f6b696e64b268696464656e5f72656d61696e6465725f7983a72e6f66667365742ea52e73697a6502ab2e76616c75655f6b696e64b268696464656e5f72656d61696e6465725f7a83a72e6f666673657440a52e73697a6508ab2e76616c75655f6b696e64b668696464656e5f676c6f62616c5f6f66667365745f7883a72e6f666673657448a52e73697a6508ab2e76616c75655f6b696e64b668696464656e5f676c6f62616c5f6f66667365745f7983a72e6f666673657450a52e73697a6508ab2e76616c75655f6b696e64b668696464656e5f676c6f62616c5f6f66667365745f7a83a72e6f666673657458a52e73697a6502ab2e76616c75655f6b696e64b068696464656e5f677269645f64696d7383a72e6f666673657468a52e73697a6508ab2e76616c75655f6b696e64b668696464656e5f686f737463616c6c5f62756666657283a72e6f666673657470a52e73697a6508ab2e76616c75655f6b696e64b968696464656e5f6d756c7469677269645f73796e635f61726783a72e6f666673657478a52e73697a6508ab2e76616c75655f6b696e64ae68696464656e5f686561705f763183a72e6f6666736574cc80a52e73697a6508ab2e76616c75655f6b696e64b468696464656e5f64656661756c745f717565756583a72e6f6666736574cc88a52e73697a6508ab2e76616c75655f6b696e64b868696464656e5f636f6d706c6574696f6e5f616374696f6e83a72e6f6666736574cce0a52e73697a6508ab2e76616c75655f6b696e64b068696464656e5f71756575655f707472b92e67726f75705f7365676d656e745f66697865645f73697a6500b62e6b65726e6172675f7365676d656e745f616c69676e08b52e6b65726e6172675f7365676d656e745f73697a65cd0118a92e6c616e6775616765a84f70656e434c2043b12e6c616e67756167655f76657273696f6e920200b82e6d61785f666c61745f776f726b67726f75705f73697a65cd0400a52e6e616d65ad6172676d61785f463136493332bb2e707269766174655f7365676d656e745f66697865645f73697a65cca0ab2e736770725f636f756e7424b12e736770725f7370696c6c5f636f756e7428a72e73796d626f6cb06172676d61785f4631364933322e6b64b82e756e69666f726d5f776f726b5f67726f75705f73697a6501b32e757365735f64796e616d69635f737461636bc2ab2e766770725f636f756e7420b12e766770725f7370696c6c5f636f756e743baf2e7761766566726f6e745f73697a6520b92e776f726b67726f75705f70726f636573736f725f6d6f646501de0012a52e61726773dc001885ae2e616464726573735f7370616365a6676c6f62616ca52e6e616d65b2696e7075744275666665722e636f65726365a72e6f666673657400a52e73697a6508ab2e76616c75655f6b696e64ad676c6f62616c5f62756666657284a52e6e616d65ac696e7075745f6f6666736574a72e6f666673657408a52e73697a6508ab2e76616c75655f6b696e64a862795f76616c756585ae2e616464726573735f7370616365a6676c6f62616ca52e6e616d65b36f75747075744275666665722e636f65726365a72e6f666673657410a52e73697a6508ab2e76616c75655f6b696e64ad676c6f62616c5f62756666657284a52e6e616d65ad6f75747075745f6f6666736574a72e6f666673657418a52e73697a6508ab2e76616c75655f6b696e64a862795f76616c756584a52e6e616d65ad726564756374696f6e53697a65a72e6f666673657420a52e73697a6508ab2e76616c75655f6b696e64a862795f76616c756583a72e6f666673657428a52e73697a6504ab2e76616c75655f6b696e64b468696464656e5f626c6f636b5f636f756e745f7883a72e6f66667365742ca52e73697a6504ab2e76616c75655f6b696e64b468696464656e5f626c6f636b5f636f756e745f7983a72e6f666673657430a52e73697a6504ab2e76616c75655f6b696e64b468696464656e5f626c6f636b5f636f756e745f7a83a72e6f666673657434a52e73697a6502ab2e76616c75655f6b696e64b368696464656e5f67726f75705f73697a655f7883a72e6f666673657436a52e73697a6502ab2e76616c75655f6b696e64b368696464656e5f67726f75705f73697a655f7983a72e6f666673657438a52e73697a6502ab2e76616c75655f6b696e64b368696464656e5f67726f75705f73697a655f7a83a72e6f66667365743aa52e73697a6502ab2e76616c75655f6b696e64b268696464656e5f72656d61696e6465725f7883a72e6f66667365743ca52e73697a6502ab2e76616c75655f6b696e64b268696464656e5f72656d61696e6465725f7983a72e6f66667365743ea52e73697a6502ab2e76616c75655f6b696e64b268696464656e5f72656d61696e6465725f7a83a72e6f666673657450a52e73697a6508ab2e76616c75655f6b696e64b668696464656e5f676c6f62616c5f6f66667365745f7883a72e6f666673657458a52e73697a6508ab2e76616c75655f6b696e64b668696464656e5f676c6f62616c5f6f66667365745f7983a72e6f666673657460a52e73697a6508ab2e76616c75655f6b696e64b668696464656e5f676c6f62616c5f6f66667365745f7a83a72e6f666673657468a52e73697a6502ab2e76616c75655f6b696e64b068696464656e5f677269645f64696d7383a72e6f666673657478a52e73697a6508ab2e76616c75655f6b696e64b668696464656e5f686f737463616c6c5f62756666657283a72e6f6666736574cc80a52e73697a6508ab2e76616c75655f6b696e64b968696464656e5f6d756c7469677269645f73796e635f61726783a72e6f6666736574cc88a52e73697a6508ab2e76616c75655f6b696e64ae68696464656e5f686561705f763183a72e6f6666736574cc90a52e73697a6508ab2e76616c75655f6b696e64b468696464656e5f64656661756c745f717565756583a72e6f6666736574cc98a52e73697a6508ab2e76616c75655f6b696e64b868696464656e5f636f6d706c6574696f6e5f616374696f6e83a72e6f6666736574ccf0a52e73697a6508ab2e76616c75655f6b696e64b068696464656e5f71756575655f707472b92e67726f75705f7365676d656e745f66697865645f73697a6500b62e6b65726e6172675f7365676d656e745f616c69676e08b52e6b65726e6172675f7365676d656e745f73697a65cd0128a92e6c616e6775616765a84f70656e434c2043b12e6c616e67756167655f76657273696f6e920200b82e6d61785f666c61745f776f726b67726f75705f73697a65cd0400a52e6e616d65ad6172676d61785f463136493634bb2e707269766174655f7365676d656e745f66697865645f73697a65ccc0ab2e736770725f636f756e7424b12e736770725f7370696c6c5f636f756e742fa72e73796d626f6cb06172676d61785f4631364936342e6b64b82e756e69666f726d5f776f726b5f67726f75705f73697a6501b32e757365735f64796e616d69635f737461636bc2ab2e766770725f636f756e7420b12e766770725f7370696c6c5f636f756e744daf2e7761766566726f6e745f73697a6520b92e776f726b67726f75705f70726f636573736f725f6d6f646501ad616d646873612e746172676574ba616d6467636e2d616d642d616d646873612d2d67667831313030ae616d646873612e76657273696f6e920102000000000000000000000000000000000000000000000000000000000000000f00000011030600001f00000000000040000000000000002000000012030700003000000000000084120000000000004d00000011030600801f00000000000040000000000000005e000000120307000053000000000000801200000000000001000000120307000020000000000000d80f0000000000002e00000011030600401f00000000000040000000000000003f000000120307000043000000000000040f0000000000006c00000011030600c01f00000000000040000000000000007d00000011000a00f08700000000000001000000000000000200000001000000020000001a0000000000010402000002140601b00000020201000000050000009a09a7e742090ac7dc520c43c509e8c6dc080ac7de6bdee75e09e8c620b5434349a5522b0a0000000a0000000300000009000000070000000000000004000000000000000500000000000000080000000000000000000000000000000000000000000000010000000000000000000000060000000200000000000000006172676d61785f463332493332006172676d61785f4633324933322e6b64006172676d61785f463332493634006172676d61785f4633324936342e6b64006172676d61785f463136493332006172676d61785f4631364933322e6b64006172676d61785f463136493634006172676d61785f4631364936342e6b64005f5f6869705f637569645f3661343562343537323635646532373100000000000000000000000000000000000000000000000000000000000000000000000000000000a0000000280100000000000000010000000000000000000000000000000000000000000000000000000000000301af609b1300001a0400000000000000000000c00000002801000000000000c0100000000000000000000000000000000000000000000000000000000000000301af609b1300001a0400000000000000000000a0000000180100000000000080230000000000000000000000000000000000000000000000000000000000000301af609b1300001a0400000000000000000000c0000000280100000000000040330000000000000000000000000000000000000000000000000000000000000301af609b1300001a04000000000000ff00a0bea0000000010061d70f000100010061d70e020100010061d70d040100010061d704060100010061d705080100010061d7020a0100010061d7030c0100000182be000060d7010b0100010060d7010d0100010061d7020e0100010061d703100100c12292be000069dc00017c001200febe0003027ec12292be000051dc00007c001200febe140069dc00017c00000204f4000000f8800104f4080000f8000104f4100000f8800004f4180000f8000004f4200000f8070089bf000061d708120100000061d709140100000061d706160100000061d707180100000061d7041a0100000061d7051c0100000061d7021e0100000061d703200100000182be000061d702220100000061d703240100ff0082beff03000001001bd501050000100069dc00017c00800082be8002067e0303047e0203087e0103067e08006ddc00037c00010059d401010000ff0080beffff7fffff02027effff7fff040069dc00017c007e0080be000061d700260100c12292be000069dc00007c001200febe0001008b0000febe2b00a5bfc12292be000051dc00007c021200febef70389bf000060d702170100010060d702190100060060d702130100070060d702150100080055dc00007c00820082bef70389bf02003cd702000200060084be0203027e070083be0303007e010400d704020200000320d5030012000003047e000282840103007e020081be0203027e030080be000100d700030000020020d5010104000203027e000052dc00007c00f70389bf040069dc00007c00c12292be000051dc00007c001200febef70389bf060060d7002701007e067e8c020060d700130100030060d700150100000060d700170100010060d700190100040060d700230100050060d700250100100051dc00007c01040051dc00007c029f0188be040086be050084be080087be090085be0607068004050482040087be060085be070084be850086be0602067e030016d6040a0c04280069dc00037c00820084be00048484020080be030081be040083be050082be0003008001020282020081be000061d700280100000061d7012a0100810080be01004cd4030100007e016a8bf70789bf0103067e240069dc00037c00f70389bf0203067e200069dc00037c001c0069dc00027c00180069dc00017c00000061d7002c0100c12292be000069dc00007c001200febe3e01a4bf0a00a0bf2c0051dc00007c01300051dc00007c00f70789bf240069dc00017c00f70389bf200069dc00007c00c12292be000051dc00007c011200febef70389bf0e0060d7010101000d0060d7010301000c0060d7010501000a0060d7010701000b0060d701090100040060d7010f0100050060d701110100000060d7010b0100010060d7010d0100140051dc00007c1f200051dc00007c02240051dc00007c00f70389bf500069dc00007c00800083bec10082be00001fd7020600003c0069dc00007c00810082be010061d7022e010003001dd500050000a00083be020041d403070000000001d500070a00820082be000018d5020002004c0069dc00007c000000ccda00020000a80188be000086be010080be080087be090081be0607088000010082000089be010061d708300100010061d709320100004780be00ff0080dc40000001ff018200000000010061d700340100010061d701360100c12292be000069dc00017c001200febe0203027e00499ebe140051dc00007c1fc12292be000051dc00007c011200febef70389bf0e0060d7010101000d0060d7010301000c0060d7010501000a0060d7010701000b0060d701090100080060d701310100090060d701330100040060d7010f0100050060d701110100000060d701350100010060d7013701000003027e3c0051dc00007c00f70389bf03001dd500050000060041d403070000000001d500071a00000018d502000200480069dc00007c000000ccda0001000000499ebe140051dc00007c1fc12292be000051dc00007c011200febef70389bf0e0060d7010101000d0060d7010301000c0060d7010501000a0060d7010701000b0060d701090100080060d701310100090060d701330100040060d7010f0100050060d701110100000060d701350100010060d7013701000003027e3c0051dc00007c00840086bef70389bf03001dd5000d0000060041d403070000000001d500071a00000018d502000200440069dc00007c000000ccda0001000000499ebe140051dc00007c1fc12292be000051dc00007c011200febef70389bf0e0060d7010101000d0060d7010301000c0060d7010501000a0060d7010701000b0060d701090100080060d701310100090060d701330100040060d7010f0100050060d701110100000060d701350100010060d7013701000003027e3c0051dc00007c00880086bef70389bf03001dd5000d0000060041d403070000000001d500071a00000018d502000200400069dc00007c000000ccda0001000000499ebe140051dc00007c1fc12292be000051dc00007c011200febef70389bf0e0060d7010101000d0060d7010301000c0060d7010501000a0060d7010701000b0060d701090100080060d701310100090060d701330100040060d7010f0100050060d701110100000060d701350100010060d7013701000003027e3c0051dc00007c00900086bef70389bf03001dd5000d0000030041d403070000000001d500070e00000018d502000200380069dc00007c000000ccda0001000000499ebec12292be000051dc00007c011200febef70389bf040060d7012f01000003027ec12292be000051dc00007c001200febe000012d401050200f70389bf000061d700380100000081be000061d7013a0100001883bec10080be800081be030407bf0202027e000061d7013c0100340069dc00017c00000061d7003e01007e0092bec100febe000069dc00007c001200febe1e01a2bf6b01a0bfc12292be000051dc00007c041200febef70389bf000060d704230100010060d704250100020060d7042d0100c12292be540051dc00007c001200febe100051dc00007c011c0051dc00007c02180051dc00007c03f70389bf6c0069dc00037c00680069dc00027c00850083be000061d702000100010046d602060404640069dc00017c00800082be8002067e0303047e0203087e0103067e5c006ddc00037c00010059d401010000ff0080beffff7fffff02027effff7fff580069dc00017c007e0080be000061d700020100c12292be540069dc00007c001200febe0001008b0000febe1d00a5bfc12292be000051dc00007c021200febef70389bf020060d702290100030060d7022b01005c0055dc00007c00820080bef70389bf01003cd700000200020081be0103007e030080be0203027e000100d701000200020020d5000206000203027e000052dc00007c00f70389bf580069dc00007c00c12292be540051dc00007c001200febef70389bf000060d7000301007e007e8c680051dc00007c016c0051dc00007c02580051dc00007c03f70389bf780069dc00037c0001001dd403030200740069dc00027c00700069dc00017c007e0080be000061d700040100c12292be540069dc00007c001200febe0001008b0000febe3c00a5bfc12292be000051dc00007c001200febef70389bf0e0060d7000101000d0060d7000301000c0060d7000501000a0060d7000701000b0060d700090100040060d7000f0100050060d700110100000060d7000b0100010060d7000d0100640051dc00007c02780051dc00007c03680051dc00007c01140051dc00007c1fa80186be000082be010080be060083be070081be0203088000010082000089be004780be00ff0080a03a000001ff018200000000f70b89bf0303007e00499ebe6c0051dc00007c010003087e0403007e000012d403090200f70389bf010001d501050200740069dc00017c00700069dc00007c00c12292be540051dc00007c041200febef70389bf010060d7040501007e017e8c000060d704010100c12292be000051dc00007c001200febe280051dc00007c03740051dc00007c01700051dc00007c02810081be00010081f70b89bf01004ad4000602007e016a8bf70789bf0103067e2c0069dc00037c00f70389bf0203067e300069dc00037c001c0069dc00027c00180069dc00017c00000061d7002c0100c12292be000069dc00007c001200febee2fda4bf1effa0bfc12292be540051dc00007c021200febef70389bf000060d7020701007e007e8c010060d702090100c12292be000051dc00007c001200febe7c0051dc00007c01800080bef70789bf000061d7013c0100f70389bf340069dc00017c00000061d7003e0100c12292be000069dc00007c001200febe6b00a0bfc12292be000051dc00007c021200febec12292be540051dc00007c011200febef70789bf010060d702390100f70389bf000060d7010b0100500051dc00007c00007e0091017e018b0001008c010061d7000c0100c12292be540069dc00017c001200febef70389bf800069dc00007c008200a0bfc12292be000051dc00007c081200febef70389bf010060d7083b0100c12292be540051dc00007c001200febe100051dc00007c01380051dc00007c02400051dc00007c03440051dc00007c04480051dc00007c054c0051dc00007c06500051dc00007c07ff0080beffffff7ff70389bf070001d5000e06000000ccda0607000607fc89bf060011d5060f02000000ccda0506000507fc89bf050011d5050d02000000ccda0405000407fc89bf040011d5040b02000000ccda0304000307fc89bf030011d503090200880069dc00037c000000ccda0203000207fc89bf840069dc00027c00800080be00004ad401010000800081be0202027e000061d7010801007c0069dc00017c007e0081be0100008b0001018d000061d701060100c12292be540069dc00007c001200febe0000febe78ffa5bf1e00a0bfc12292be000051dc00007c021200febef70389bf010060d7023f0100000060d7023d0100c12292be540051dc00007c011200febe340051dc00007c00f70789bf010061d7000a01007e016a8b010061d7000c0100c12292be540069dc00017c001200febef70389bf800069dc00007c0078ffa4bf1600a0bfc12292be540051dc00007c011200febe840051dc00007c00880051dc00007c02f70389bf000011d500050200c10080be7e0080be010061d700080100c12292be540069dc00017c001200febe7c0069dc00007c0043ffa0bfc12292be540051dc00007c001200febef70389bf010060d7000d0100800051dc00007c01f70389bf8c0069dc00017c007e0080be000061d7000e0100c12292be540069dc00007c001200febe0001008b0000febe1c00a5bfc12292be000051dc00007c001200febef70389bf020060d7001b0100030060d7001d0100000060d7001f0100010060d7002101008c0051dc00007c01820084be00048484020080be030081be040083be050082be0003008001020282020081be8002007ef70389bf00006adc00010000c12292be540051dc00007c001200febef70389bf000060d7000f01007e007e8cc12292be000051dc00007c011200febe0000b0bf000080bf000080bf000080bf000080bf000080bf000080bf000080bf000080bf000080bf000080bfff00a0bec0000000010061d70f000100010061d70e020100010061d70d040100010061d704060100010061d705080100010061d7020a0100010061d7030c0100000182be000060d7010b0100010060d7010d0100010061d7020e0100010061d703100100c12292be000069dc00017c001200febe0003027ec12292be000051dc00007c001200febe140069dc00017c00000204f4000000f8800104f4080000f8000104f4100000f8800004f4180000f8000004f4200000f8070089bf000061d708120100000061d709140100000061d706160100000061d707180100000061d7041a0100000061d7051c0100000061d7021e0100000061d703200100000182be000061d702220100000061d703240100ff0082beff03000001001bd501050000100069dc00017c00800082be8002067e0303047e0203087e0103067e08006ddc00037c00010059d401010000ff0080beffff7fffff02027effff7fff040069dc00017c007e0080be000061d700260100c12292be000069dc00007c001200febe0001008b0000febe2b00a5bfc12292be000051dc00007c021200febef70389bf000060d702170100010060d702190100060060d702130100070060d702150100080055dc00007c00820082bef70389bf02003cd702000200060084be0203027e070083be0303007e010400d704020200000320d5030012000003047e000282840103007e020081be0203027e030080be000100d700030000020020d5010104000203027e000052dc00007c00f70389bf040069dc00007c00c12292be000051dc00007c001200febef70389bf060060d7002701007e067e8c020060d700130100030060d700150100000060d700170100010060d700190100040060d700230100050060d700250100080055dc00007c01040051dc00007c039f0188be040086be050084be080087be090085be0607068004050482040087be060085be070084be850086be0602087e040016d6040a1004300069dc00047c00820084be00048484020080be030081be040083be050082be0003008001020282020081be000061d700280100000061d7012a0100810080be01004cd4040100007e016a8bf70789bf02030a7e0103087e28006ddc00047c00f70389bf0303087e240069dc00047c00200069dc00037c0018006ddc00017c00000061d7002c0100c12292be000069dc00007c001200febe3f01a4bf0a00a0bf340055dc00007c013c0051dc00007c00f70789bf28006ddc00017c00f70389bf240069dc00007c00c12292be000051dc00007c011200febef70389bf0e0060d7010101000d0060d7010301000c0060d7010501000a0060d7010701000b0060d701090100040060d7010f0100050060d701110100000060d7010b0100010060d7010d0100140051dc00007c1f240051dc00007c02280055dc00007c03f70389bf60006ddc00037c00800083bec10082be00001fd7020600004c0069dc00007c00810082be010061d7022e010003001dd500050000a00083be020041d403070000000001d500070a00820082be000018d5020002005c0069dc00007c000000ccda00020000a80188be000086be010080be080087be090081be0607088000010082000089be010061d708300100010061d709320100004780be00ff0080d830000001ff018200000000010061d700340100010061d701360100c12292be000069dc00017c001200febe0203027e00499ebe140051dc00007c1fc12292be000051dc00007c011200febef70389bf0e0060d7010101000d0060d7010301000c0060d7010501000a0060d7010701000b0060d701090100080060d701310100090060d701330100040060d7010f0100050060d701110100000060d701350100010060d7013701000003027e4c0051dc00007c00f70389bf03001dd500050000060041d403070000000001d500071a00000018d502000200580069dc00007c000000ccda0001000000499ebe140051dc00007c1fc12292be000051dc00007c011200febef70389bf0e0060d7010101000d0060d7010301000c0060d7010501000a0060d7010701000b0060d701090100080060d701310100090060d701330100040060d7010f0100050060d701110100000060d701350100010060d7013701000003027e4c0051dc00007c00840086bef70389bf03001dd5000d0000060041d403070000000001d500071a00000018d502000200540069dc00007c000000ccda0001000000499ebe140051dc00007c1fc12292be000051dc00007c011200febef70389bf0e0060d7010101000d0060d7010301000c0060d7010501000a0060d7010701000b0060d701090100080060d701310100090060d701330100040060d7010f0100050060d701110100000060d701350100010060d7013701000003027e4c0051dc00007c00880086bef70389bf03001dd5000d0000060041d403070000000001d500071a00000018d502000200500069dc00007c000000ccda0001000000499ebe140051dc00007c1fc12292be000051dc00007c011200febef70389bf0e0060d7010101000d0060d7010301000c0060d7010501000a0060d7010701000b0060d701090100080060d701310100090060d701330100040060d7010f0100050060d701110100000060d701350100010060d7013701000003027e4c0051dc00007c00900086bef70389bf03001dd5000d0000030041d403070000000001d500070e00000018d502000200480069dc00007c000000ccda0001000000499ebec12292be000051dc00007c011200febef70389bf050060d7012f01000003027ec12292be000051dc00007c001200febe000012d401050200f70389bf000061d700380100000081be000061d7013a0100001884bec10080be800081be040507bf0202027e0302047e000061d7013c010040006ddc00017c00000061d7003e01007e0092bec100febe000069dc00007c001200febe2401a2bff801a0bfc12292be000051dc00007c051200febef70389bf000060d705230100010060d705250100020060d7052d0100c12292be680051dc00007c001200febe100051dc00007c01200051dc00007c02180055dc00007c03f70389bf7c006ddc00037c00780069dc00027c00850083be000061d702000100010046d602060404800082be8002067e0303047e0203087e0103067e70006ddc00037c00010059d401010000ff0080beffff7fffff02027effff7fff6c0069dc00017c007e0080be000061d700020100c12292be680069dc00007c001200febe0001008b0000febe1d00a5bfc12292be000051dc00007c021200febef70389bf020060d702290100030060d7022b0100700055dc00007c00820080bef70389bf01003cd700000200020081be0103007e030080be0203027e000100d701000200020020d5000206000203027e000052dc00007c00f70389bf6c0069dc00007c00c12292be680051dc00007c001200febef70389bf000060d7000301007e007e8c780051dc00007c017c0055dc00007c026c0051dc00007c04f70389bf900069dc00047c0001001dd40403020088006ddc00027c00840069dc00017c007e0080be000061d700040100c12292be680069dc00007c001200febe0001008b0000febe4300a5bfc12292be000051dc00007c001200febef70389bf0e0060d7000101000d0060d7000301000c0060d7000501000a0060d7000701000b0060d700090100040060d7000f0100050060d700110100000060d7000b0100010060d7000d01007c0055dc00007c04900051dc00007c03780051dc00007c01140051dc00007c1fa80186be000082be010080be060083be070081be0203088000010082000089be004780be00ff0080a02a000001ff018200000000f70b89bf0303007e00499ebe700055dc00007c0100030c7e0603007e000012d4030d0200f70389bf02030c7e0503067e030001d5030d02000103047e0403027e010001d5010502000303047e88006ddc00017c00840069dc00007c00c12292be680051dc00007c051200febef70389bf010060d7050501007e017e8c000060d705010100c12292be000051dc00007c001200febe300051dc00007c04880055dc00007c01840051dc00007c03810081be00010081f70b89bf01004ad4000802007e016a8bf70789bf02030a7e0103087e34006ddc00047c00f70389bf0303087e3c0069dc00047c00200069dc00037c0018006ddc00017c00000061d7002c0100c12292be000069dc00007c001200febedbfda4bf18ffa0bfc12292be680051dc00007c031200febef70389bf000060d7030701007e007e8c010060d703090100c12292be000051dc00007c001200febe940055dc00007c01800080bef70789bf000061d7013c0100f70389bf40006ddc00017c00000061d7003e0100c12292be000069dc00007c001200febef200a0bfc12292be000051dc00007c031200febec12292be680051dc00007c021200febef70789bf010060d703390100f70389bf000060d7020b0100600055dc00007c00007e0091017e018b0001008c020061d7000c0100c12292be680069dc00027c001200febef70389bf9c006ddc00007c002501a0bfc12292be000051dc00007c031200febef70389bf010060d7033b0100c12292be680051dc00007c001200febe100051dc00007c01480051dc00007c02500051dc00007c05540051dc00007c06580051dc00007c075c0051dc00007c08600055dc00007c09f70389bf0a03067eff0182beffffff7f030080be010084be030001d5000612000903087e020080be040001d5000806000403147e0303167ea00080be000061d7000e01000b031a7e0a03187e0c003dd7001802000c03127e0000ccda0804000d0000ccda080900080102187e0c03127e07fc89bf08003cd700100200800081be0102187e0c031c7e0903187e0e031e7e0c001cd50c1f02000d03127e08001cd5081302000c03127e020051d4081502000903147e030001d503150a00040001d504110a000403127e0303147e0a03187e0903167e0b003dd7001602000b03107e0000ccda0704000c0000ccda070800070202167e0b03107e07fc89bf07003cd7000e02000102167e0b031a7e0803167e0d031c7e0b001cd50b1d02000c03107e07001cd5071102000b03107e020051d4071302000803127e030001d503130a00040001d5040f0a000403107e0303127e0903167e0803147e0a003dd7001402000a030e7e0000ccda0604000b0000ccda060700060202147e0a030e7e07fc89bf06003cd7000c02000102147e0a03187e0703147e0c031a7e0a001cd50a1b02000b030e7e06001cd5060f02000a030e7e020051d4061102000703107e030001d503110a00040001d5040d0a0004030e7e0303107e0803147e0703127e09003dd70012020009030c7e0000ccda0504000a0000ccda050600050202127e09030c7e07fc89bf05003cd7000a02000102127e0903167e0603127e0b03187e09001cd5091902000a030c7e05001cd5050d020009030c7e020051d4050f020006030e7e030001d5030f0a00040001d5040b0a0004030a7e03030c7e0603107e05030e7eac006ddc00077c0005003dd7000a02000503067e0000ccda0204000407fc89bfa80069dc00047c000000ccda0203000207fc89bfa40069dc00027c00800080be00004ad4010100000202027e0302047e000061d70108010094006ddc00017c007e0081be0100008b0001018d000061d701060100c12292be680069dc00007c001200febe0000febef1fea5bf1e00a0bfc12292be000051dc00007c031200febef70389bf010060d7033f0100000060d7033d0100c12292be680051dc00007c021200febe400055dc00007c00f70789bf020061d7000a01007e016a8b020061d7000c0100c12292be680069dc00027c001200febef70389bf9c006ddc00007c00f1fea4bf3200a0bfc12292be680051dc00007c021200febeac0055dc00007c04a80051dc00007c00a40051dc00007c060002027e01030e7ea00080bef70389bf06003cd7000c0200800080be8002067e0303027e0103107e0703067e03001cd5031102000003027e0603007e00001cd5000302000303027e000051d40009020001030c7e0503067e030001d5030d02000003027e0403007e000001d5000302000303027ec10080be7e0080be020061d700080100c12292be680069dc00027c001200febe94006ddc00007c00a0fea0bfc12292be680051dc00007c001200febef70389bf010060d7000d01009c0055dc00007c01f70389bfb4006ddc00017c007e0080be000061d700100100c12292be680069dc00007c001200febe0001008b0000febe1c00a5bfc12292be000051dc00007c001200febef70389bf020060d7001b0100030060d7001d0100000060d7001f0100010060d700210100b40055dc00007c01830084be00048484020080be030081be040083be050082be0003008001020282020081be8002007ef70389bf00006edc00010000c12292be680051dc00007c001200febef70389bf000060d7001101007e007e8cc12292be000051dc00007c011200febe0000b0bf000080bf000080bf000080bf000080bf000080bf000080bf000080bf000080bf000080bf000080bf000080bf000080bf000080bf000080bf000080bf000080bf000080bf000080bf000080bf000080bf000080bf000080bf000080bf000080bf000080bf000080bf000080bf000080bf000080bf000080bf000080bfff00a0bea0000000010061d70f000100010061d70e020100010061d70d040100010061d704060100010061d705080100010061d7020a0100010061d7030c0100000182be000060d7010b0100010060d7010d0100010061d7020e0100010061d703100100c12292be000069dc00017c001200febe0003027ec12292be000051dc00007c001200febe140069dc00017c00000104f4000000f8800004f4080000f8000004f4100000f8070089bf000061d704120100000061d705140100000061d702160100000061d703180100ff0082beff03000001001bd501050000100069dc00017c00800082be8002067e0303047e0203087e0103067e08006ddc00037c00000004f4000000f807fc89bf000182be000061d7021a0100000061d7031c010001005cd400020200ff0080befffb0000ff02027efffb0000040069dc00017c007e0080be000061d7001e0100c12292be000069dc00007c001200febe0001008b0000febe1d00a5bfc12292be000051dc00007c021200febef70389bf020060d702130100030060d702150100080055dc00007c00810080bef70389bf01003cd700000200020081be0103007e030080be0203027e000100d701000200020020d5000206000203027e000048dc00007c00070089bf040069dc00007c00c12292be000051dc00007c011200febef70389bf020060d7011f01007e027e8c000060d7011b0100010060d7011d0100100051dc00007c02040051dc00007c009f0184be000082be010080be040083be050081be0203028000010082000083be020081be030080be850082be0202067e030016d600020c04280069dc00037c00810080be01004cd4030100007e016a8bf70389bf0003067e240069dc00037c000203067e200069dc00037c001c0069dc00027c00010061d700200100c12292be000069dc00017c001200febe180069dc00007c005401a4bf0a00a0bf2c0051dc00007c01300051dc00007c00f70789bf240069dc00017c00f70389bf200069dc00007c00c12292be000051dc00007c011200febef70389bf0e0060d7010101000d0060d7010301000c0060d7010501000a0060d7010701000b0060d701090100040060d7010f0100050060d701110100000060d7010b0100010060d7010d0100140051dc00007c1f240051dc00007c02200051dc00007c00f70389bf500069dc00007c00800083bec10082be00001fd7020600003c0069dc00007c00ff0082beffff0000010061d70222010003001bd502040200810082be010061d70224010004001dd500050000a00083be020041d404070000000001d500090a00820082be000018d5020002004c0069dc00007c000000ccda00030000980188be000086be010080be080087be090081be0607088000010082000089be010061d708260100010061d709280100004780be00ff0080a41e000001ff018200000000010061d7002a0100010061d7012c0100c12292be000069dc00017c001200febe0203027e00499ebe140051dc00007c1fc12292be000051dc00007c011200febef70389bf0e0060d7010101000d0060d7010301000c0060d7010501000a0060d7010701000b0060d701090100080060d701270100090060d701290100060060d701230100040060d7010f0100050060d701110100000060d7012b0100010060d7012d01000003027e3c0051dc00007c0003001bd506020200f70389bf04001dd500050000060041d404070000000001d500091a00000018d502000200480069dc00007c000000ccda0003000000499ebe140051dc00007c1fc12292be000051dc00007c011200febef70389bf0e0060d7010101000d0060d7010301000c0060d7010501000a0060d7010701000b0060d701090100080060d701270100090060d701290100060060d701230100040060d7010f0100050060d701110100000060d7012b0100010060d7012d01000003027e3c0051dc00007c0003001bd506020200840086bef70389bf04001dd5000d0000060041d404070000000001d500091a00000018d502000200440069dc00007c000000ccda0003000000499ebe140051dc00007c1fc12292be000051dc00007c011200febef70389bf0e0060d7010101000d0060d7010301000c0060d7010501000a0060d7010701000b0060d701090100080060d701270100090060d701290100060060d701230100040060d7010f0100050060d701110100000060d7012b0100010060d7012d01000003027e3c0051dc00007c0003001bd506020200880086bef70389bf04001dd5000d0000060041d404070000000001d500091a00000018d502000200400069dc00007c000000ccda0003000000499ebe140051dc00007c1fc12292be000051dc00007c011200febef70389bf0e0060d7010101000d0060d7010301000c0060d7010501000a0060d7010701000b0060d701090100080060d701270100090060d701290100060060d701230100040060d7010f0100050060d701110100000060d7012b0100010060d7012d01000003027e3c0051dc00007c0003001bd506020200900086bef70389bf04001dd5000d0000030041d404070000000001d500090e00000018d502000200380069dc00007c000000ccda0003000000499ebec12292be000051dc00007c011200febef70389bf040060d7012501000003027ec12292be000051dc00007c001200febe000002d401050200f70389bf000061d7002e0100000081be000061d701300100001883bec10080be800081be030407bf0202027e000061d701320100340069dc00017c00000061d7003401007e0092bec100febe000069dc00007c001200febe1101a2bf5a01a0bfc12292be000051dc00007c001200febef70389bf000060d7001b0100010060d7001d0100020060d700210100100051dc00007c011c0051dc00007c02180051dc00007c03f70389bf680069dc00037c00000061d702360100640069dc00027c00850083be010046d602060404600069dc00017c00800082be8002067e0303047e0203087e0103067e58006ddc00037c0001005cd400020200ff0080befffb0000ff02027efffb0000540069dc00017c007e0080be000061d700380100c12292be000069dc00007c001200febe0001008b0000febe1d00a5bfc12292be000051dc00007c021200febef70389bf020060d702130100030060d702150100580055dc00007c00810080bef70389bf01003cd700000200020081be0103007e030080be0203027e000100d701000200020020d5000206000203027e000048dc00007c00070089bf540069dc00007c00c12292be000051dc00007c001200febef70389bf000060d7003901007e007e8c640051dc00007c01680051dc00007c02540051dc00007c03f70389bf740069dc00037c0001000dd403050200700069dc00027c006c0069dc00017c007e0080be000061d7003a0100c12292be000069dc00007c001200febe0001008b0000febe3c00a5bfc12292be000051dc00007c001200febef70389bf0e0060d7000101000d0060d7000301000c0060d7000501000a0060d7000701000b0060d700090100040060d7000f0100050060d700110100000060d7000b0100010060d7000d0100600051dc00007c02740051dc00007c03680051dc00007c01140051dc00007c1f980186be000082be010080be060083be070081be0203088000010082000089be004780be00ff00803818000001ff018200000000f70b89bf0303007e00499ebe0003087e640051dc00007c000403027e000002d403090200f70389bf000001d500050200700069dc00017c006c0069dc00007c00c12292be000051dc00007c011200febef70389bf010060d7013b01007e017e8c000060d701370100280051dc00007c03700051dc00007c006c0051dc00007c02810081be00010081f70b89bf01004ad4000602007e016a8bf70789bf0003067e2c0069dc00037c00f70389bf0203067e300069dc00037c001c0069dc00027c00010061d700200100c12292be000069dc00017c001200febe180069dc00007c00d4fda4bf26ffa0bfc12292be000051dc00007c001200febef70389bf000060d7003d01007e007e8c010060d7003f0100780051dc00007c01800080be000061d701320100f70389bf340069dc00017c00000061d700340100c12292be000069dc00007c001200febe6700a0bfc12292be000051dc00007c021200febec12292be800051dc00007c011200febef70789bf010060d7022f0100f70389bf000060d701010100500051dc00007c00007e0091017e018b0001008c010061d700020100c12292be800069dc00017c001200febef70389bf7c0069dc00007c007e00a0bfc12292be000051dc00007c001200febef70389bf010060d700310100100051dc00007c01380051dc00007c02400051dc00007c03440051dc00007c04480051dc00007c054c0051dc00007c06500051dc00007c07ff0080beffffff7ff70389bf070001d5000e06000000ccda0607000607fc89bf060011d5060f02000000ccda0506000507fc89bf050011d5050d02000000ccda0405000407fc89bf040011d5040b02000000ccda0304000307fc89bf030011d503090200880069dc00037c000000ccda0203000207fc89bf840069dc00027c00800080be00004ad401010000800081be0202027e000061d7013e0100780069dc00017c007e0081be0100008b0001018d000061d7013c0100c12292be000069dc00007c001200febe0000febe81ffa5bf1e00a0bfc12292be000051dc00007c021200febef70389bf010060d702350100000060d702330100c12292be800051dc00007c011200febe340051dc00007c00f70789bf010061d7000001007e016a8b010061d700020100c12292be800069dc00017c001200febef70389bf7c0069dc00007c007cffa4bf1600a0bfc12292be000051dc00007c011200febe840051dc00007c00880051dc00007c02f70389bf000011d500050200c10080be7e0080be010061d7003e0100c12292be000069dc00017c001200febe780069dc00007c004cffa0bfc12292be800051dc00007c001200febef70389bf010060d7000301007c0051dc00007c01f70389bf8c0069dc00017c007e0080be000061d700040100c12292be800069dc00007c001200febe0001008b0000febe0f00a5bfc12292be000051dc00007c001200febef70389bf000060d700170100010060d7001901008c0051dc00007c018002007ef70389bf00006adc00010000c12292be800051dc00007c001200febef70389bf000060d7000501007e007e8cc12292be000051dc00007c011200febe0000b0bf000080bf000080bf000080bf000080bf000080bf000080bf000080bf000080bf000080bf000080bf000080bf000080bf000080bf000080bf000080bf000080bf000080bf000080bf000080bf000080bf000080bf000080bf000080bf000080bf000080bf000080bf000080bf000080bf000080bf000080bf000080bf000080bf000080bf000080bf000080bf000080bf000080bf000080bf000080bf000080bf000080bf000080bf000080bf000080bf000080bf000080bf000080bf000080bf000080bf000080bf000080bf000080bf000080bf000080bf000080bf000080bf000080bf000080bf000080bf000080bf000080bf000080bf000080bfff00a0bec0000000010061d70f000100010061d70e020100010061d70d040100010061d704060100010061d705080100010061d7020a0100010061d7030c0100000182be000060d7010b0100010060d7010d0100010061d7020e0100010061d703100100c12292be000069dc00017c001200febe0003027ec12292be000051dc00007c001200febe140069dc00017c00000204f4000000f8800104f4080000f8000104f4100000f8800004f4180000f8000004f4200000f8070089bf000061d708120100000061d709140100000061d706160100000061d707180100000061d7041a0100000061d7051c0100000061d7021e0100000061d703200100000182be000061d702220100000061d703240100ff0082beff03000001001bd501050000100069dc00017c00800082be8002067e0303047e0203087e0103067e08006ddc00037c00010059d401010000ff0080befffb0000ff02027efffb0000040069dc00017c007e0080be000061d700260100c12292be000069dc00007c001200febe0001008b0000febe2b00a5bfc12292be000051dc00007c021200febef70389bf000060d702170100010060d702190100060060d702130100070060d702150100080055dc00007c00810082bef70389bf02003cd702000200060084be0203027e070083be0303007e010400d704020200000320d5030012000003047e000282840103007e020081be0203027e030080be000100d700030000020020d5010104000203027e000048dc00007c00070089bf040069dc00007c00c12292be000051dc00007c011200febef70389bf060060d7012701007e067e8c040060d701130100050060d701150100020060d701170100030060d701190100000060d701230100010060d701250100080055dc00007c02040051dc00007c009f0188be000086be010080be080087be090081be0607068000010082000087be060081be070080be850086be0602087e040016d600021004300069dc00047c00810080be02008684040082be050081be060084be070083be0204028001030182010083be010061d702280100010061d7032a010001004cd4040100007e016a8bf70389bf0003087e2c0069dc00047c0003030a7e0203087e24006ddc00047c001c006ddc00027c00010061d7002c0100c12292be000069dc00017c001200febe180069dc00007c003d01a4bf0a00a0bf340051dc00007c02380055dc00007c00f70789bf2c0069dc00027c00f70389bf24006ddc00007c00c12292be000051dc00007c031200febef70389bf0e0060d7030101000d0060d7030301000c0060d7030501000a0060d7030701000b0060d703090100040060d7030f0100050060d703110100000060d7030b0100010060d7030d0100140051dc00007c1f2c0051dc00007c02240055dc00007c00f70389bf64006ddc00007c00800083bec10082be00001fd702060000500069dc00007c00ff0082beffff0000030061d7022e010001001bd502040200810082be030061d70230010004001dd500050000a00083be020041d404070000000001d500090a00820082be000018d502000200600069dc00007c000000ccda00010000a80188be000086be010080be080087be090081be0607088000010082000089be030061d708320100030061d709340100004780be00ff0080f40d000001ff018200000000030061d700360100030061d7013801000203027e00499ebe140051dc00007c1f0e0060d7030101000d0060d7030301000c0060d7030501000a0060d7030701000b0060d703090100080060d703330100090060d703350100060060d7032f0100040060d7030f0100050060d703110100000060d703370100010060d7033901000003027e500051dc00007c0004001bd506020200f70389bf05001dd500050000060041d405070000000001d5000b1a00000018d5020002005c0069dc00007c000000ccda0004000000499ebe140051dc00007c1f0e0060d7030101000d0060d7030301000c0060d7030501000a0060d7030701000b0060d703090100080060d703330100090060d703350100060060d7032f0100040060d7030f0100050060d703110100000060d703370100010060d7033901000003027e500051dc00007c0004001bd506020200840086bef70389bf05001dd5000d0000060041d405070000000001d5000b1a00000018d502000200580069dc00007c000000ccda0004000000499ebe140051dc00007c1f0e0060d7030101000d0060d7030301000c0060d7030501000a0060d7030701000b0060d703090100080060d703330100090060d703350100060060d7032f0100040060d7030f0100050060d703110100000060d703370100010060d7033901000003027e500051dc00007c0004001bd506020200880086bef70389bf05001dd5000d0000060041d405070000000001d5000b1a00000018d502000200540069dc00007c000000ccda0004000000499ebe140051dc00007c1f0e0060d7030101000d0060d7030301000c0060d7030501000a0060d7030701000b0060d703090100080060d703330100090060d703350100060060d7032f0100040060d7030f0100050060d703110100000060d703370100010060d7033901000003027e500051dc00007c0004001bd506020200900086bef70389bf05001dd5000d0000030041d405070000000001d5000b0e00000018d5020002004c0069dc00007c000000ccda0004000000499ebe050060d7033101000003027ec12292be400051dc00007c001200febe000002d401050200030061d7003a0100000081be030061d7013c0100001884bec10080be800081be040507bf0202027e0302047e030061d7013e01007e0092bec100febe000069dc00037c001200febe44006ddc00017c00f70389bf000061d7000001007e0092bec100febe400069dc00007c001200febe2801a2bffc01a0bfc12292be000051dc00007c051200febef70389bf000060d705230100010060d705250100020060d7052d0100c12292be400051dc00007c001200febe100051dc00007c011c0055dc00007c02180051dc00007c04f70389bf800069dc00047c00000061d70202010078006ddc00027c00850083be010046d602060404800082be8002067e0303047e0203087e0103067e70006ddc00037c00010059d401010000ff0080befffb0000ff02027efffb00006c0069dc00017c007e0080be000061d700040100c12292be400069dc00007c001200febe0001008b0000febe1d00a5bfc12292be000051dc00007c021200febef70389bf020060d702290100030060d7022b0100700055dc00007c00810080bef70389bf01003cd700000200020081be0103007e030080be0203027e000100d701000200020020d5000206000203027e000048dc00007c00070089bf6c0069dc00007c00c12292be400051dc00007c001200febef70389bf000060d7000501007e007e8c780055dc00007c01800051dc00007c036c0051dc00007c04f70389bf900069dc00047c0001000dd4040702008c0069dc00037c0084006ddc00017c007e0080be000061d700060100c12292be400069dc00007c001200febe0001008b0000febe4300a5bfc12292be000051dc00007c001200febef70389bf0e0060d7000101000d0060d7000301000c0060d7000501000a0060d7000701000b0060d700090100040060d7000f0100050060d700110100000060d7000b0100010060d7000d0100780055dc00007c04900051dc00007c03800051dc00007c01140051dc00007c1fa80186be000082be010080be060083be070081be0203088000010082000089be004780be00ff0080dc07000001ff018200000000f70b89bf0303007e00499ebe00030c7e700055dc00007c000603047e000002d4030d0200f70389bf01030c7e0503067e030001d5030d02000003027e0403007e000001d5000302000303027e8c0069dc00027c0084006ddc00007c00c12292be400051dc00007c051200febef70389bf010060d7050701007e017e8c000060d705030100c12292be000051dc00007c011200febe300051dc00007c048c0051dc00007c00840055dc00007c02810081be00010081f70b89bf01004ad4000802007e016a8bf70789bf0003087e340069dc00047c00f70389bf03030a7e0203087e38006ddc00047c001c006ddc00027c00010061d7002c0100c12292be000069dc00017c001200febe180069dc00007c00ddfda4bf18ffa0bfc12292be400051dc00007c001200febef70389bf000060d7000901007e007e8c010060d7000b0100c12292be000051dc00007c031200febe940055dc00007c01800080bef70789bf030061d7013e0100c12292be000069dc00037c001200febef70389bf44006ddc00017c00000061d700000100c12292be400069dc00007c001200febef200a0bfc12292be000051dc00007c031200febec12292be400051dc00007c021200febef70789bf010060d7033b0100f70389bf000060d7020d0100640055dc00007c00007e0091017e018b0001008c020061d7000e0100c12292be400069dc00027c001200febef70389bf9c006ddc00007c002401a0bfc12292be000051dc00007c031200febef70389bf010060d7033d0100c12292be400051dc00007c001200febe100051dc00007c014c0051dc00007c02540051dc00007c05580051dc00007c065c0051dc00007c07600051dc00007c08640055dc00007c09f70389bf0a03067eff0182beffffff7f030080be010084be030001d5000612000903087e020080be040001d5000806000403147e0303167ea00080be000061d7001001000b031a7e0a03187e0c003dd7001802000c03127e0000ccda0804000d0000ccda080900080102187e0c03127e07fc89bf08003cd700100200800081be0102187e0c031c7e0903187e0e031e7e0c001cd50c1f02000d03127e08001cd5081302000c03127e020051d4081502000903147e030001d503150a00040001d504110a000403127e0303147e0a03187e0903167e0b003dd7001602000b03107e0000ccda0704000c0000ccda070800070202167e0b03107e07fc89bf07003cd7000e02000102167e0b031a7e0803167e0d031c7e0b001cd50b1d02000c03107e07001cd5071102000b03107e020051d4071302000803127e030001d503130a00040001d5040f0a000403107e0303127e0903167e0803147e0a003dd7001402000a030e7e0000ccda0604000b0000ccda060700060202147e0a030e7e07fc89bf06003cd7000c02000102147e0a03187e0703147e0c031a7e0a001cd50a1b02000b030e7e06001cd5060f02000a030e7e020051d4061102000703107e030001d503110a00040001d5040d0a0004030e7e0303107e0803147e0703127e09003dd70012020009030c7e0000ccda0504000a0000ccda050600050202127e09030c7e07fc89bf05003cd7000a02000102127e0903167e0603127e0b03187e09001cd5091902000a030c7e05001cd5050d020009030c7e020051d4050f020006030e7e030001d5030f0a00040001d5040b0a0004030a7e03030c7e0603107e05030e7eac006ddc00077c0005003dd7000a02000503067e0000ccda0204000407fc89bfa80069dc00047c000000ccda0203000207fc89bfa40069dc00027c00800080be00004ad4010100000202027e0302047e000061d7010a010094006ddc00017c007e0081be0100008b0001018d000061d701080100c12292be400069dc00007c001200febe0000febeedfea5bf1d00a0bfc12292be000051dc00007c031200febec12292be400051dc00007c021200febef70389bf010060d702010100000060d7033f0100440055dc00007c00020061d7000c01007e016a8b020061d7000e0100c12292be400069dc00027c001200febef70389bf9c006ddc00007c00f2fea4bf3200a0bfc12292be400051dc00007c021200febeac0055dc00007c04a80051dc00007c00a40051dc00007c060002027e01030e7ea00080bef70389bf06003cd7000c0200800080be8002067e0303027e0103107e0703067e03001cd5031102000003027e0603007e00001cd5000302000303027e000051d40009020001030c7e0503067e030001d5030d02000003027e0403007e000001d5000302000303027ec10080be7e0080be020061d7000a0100c12292be400069dc00027c001200febe94006ddc00007c009dfea0bfc12292be400051dc00007c001200febef70389bf010060d7000f01009c0055dc00007c01f70389bfb4006ddc00017c007e0080be000061d700120100c12292be400069dc00007c001200febe0001008b0000febe1c00a5bfc12292be000051dc00007c001200febef70389bf020060d7001b0100030060d7001d0100000060d7001f0100010060d700210100b40055dc00007c01830084be00048484020080be030081be040083be050082be0003008001020282020081be8002007ef70389bf00006edc00010000c12292be400051dc00007c001200febef70389bf000060d7001301007e007e8cc12292be000051dc00007c011200febe0000b0bf000089bf210080be2000a1be010010d501030200000010d500010200000010d5000302000000a1be1e4880be000089bf210080be2000a1be010039d501030200000039d500010200000039d5000302000000a1be1e4880be00009fbf00009fbf00009fbf00009fbf00009fbf00009fbf00009fbf00009fbf00009fbf00009fbf00009fbf00009fbf00009fbf00009fbf00009fbf00009fbf00009fbf00009fbf00009fbf00009fbf00009fbf00009fbf00009fbf00009fbf00009fbf00009fbf00009fbf00009fbf00009fbf00009fbf00009fbf00009fbf00009fbf00009fbf00009fbf00009fbf00009fbf00009fbf00009fbf00009fbf00009fbf00009fbf00009fbf00009fbf00009fbf00009fbf00009fbf00009fbf00009fbf00009fbf00009fbf00009fbf00009fbf00009fbf00009fbf00009fbf00009fbf00009fbf00009fbf00009fbf00009fbf00009fbf00009fbf00009fbf00009fbf00009fbf00009fbf00009fbf00009fbf00009fbf00009fbf00009fbf00009fbf00009fbf00009fbf00009fbf00009fbf00009fbf00009fbf00009fbf00009fbf00009fbf00009fbf00009fbf00009fbf00009fbf00009fbf00009fbf00009fbf00009fbf00009fbf00009fbf00009fbf00009fbf00009fbf00009fbf00009fbf00009fbf00009fbf00009fbf00009fbf00009fbf00009fbf00009fbf00009fbf00009fbf0600000000000000b01c0000000000000b0000000000000018000000000000000500000000000000441e0000000000000a000000000000009900000000000000f5feff6f00000000a01d0000000000000400000000000000ec1d00000000000000000000000000000000000000000000414d4420636c616e672076657273696f6e2031372e302e30202868747470733a2f2f6769746875622e636f6d2f526164656f6e4f70656e436f6d707574652f6c6c766d2d70726f6a65637420726f632d362e302e3020323334383320373230386538643135666266323138646562373434383365613863353439633637636134393835652900636c616e672076657273696f6e2031392e302e30676974004c696e6b65723a204c4c442031392e302e300000000000000000000000000000000000000000000000000000000000000000010000000200070080650000000000002c000000000000001100000002000700ac650000000000002c00000000000000b9000000000208008077000000000000000000000000000021000000120307000020000000000000d80f0000000000002f00000011030600001f00000000000040000000000000004000000012030700003000000000000084120000000000004e00000011030600401f00000000000040000000000000005f000000120307000043000000000000040f0000000000006d00000011030600801f00000000000040000000000000007e00000012030700005300000000000080120000000000008c00000011030600c01f00000000000040000000000000009d00000011000a00f0870000000000000100000000000000002e6e6f7465002e64796e73796d002e676e752e68617368002e68617368002e64796e737472002e726f64617461002e74657874002e64796e616d6963002e72656c726f5f70616464696e67002e627373002e636f6d6d656e74002e73796d746162002e7368737472746162002e73747274616200005f5f6f636d6c5f666d61785f663332005f5f6f636d6c5f666d61785f663136006172676d61785f463332493332006172676d61785f4633324933322e6b64006172676d61785f463332493634006172676d61785f4633324936342e6b64006172676d61785f463136493332006172676d61785f4631364933322e6b64006172676d61785f463136493634006172676d61785f4631364936342e6b64005f5f6869705f637569645f36613435623435373236356465323731005f44594e414d49430000000000000000000000000000000000000000000000000000000000000000000000000000000000000000000000000000000000000000000000000000000000000100000007000000020000000000000038020000000000003802000000000000741a000000000000000000000000000004000000000000000000000000000000070000000b0000000200000000000000b01c000000000000b01c000000000000f0000000000000000500000001000000080000000000000018000000000000000f000000f6ffff6f0200000000000000a01d000000000000a01d0000000000004c0000000000000002000000000000000800000000000000000000000000000019000000050000000200000000000000ec1d000000000000ec1d00000000000058000000000000000200000000000000040000000000000004000000000000001f000000030000000200000000000000441e000000000000441e000000000000990000000000000000000000000000000100000000000000000000000000000027000000010000000200000000000000001f000000000000001f00000000000000010000000000000000000000000000400000000000000000000000000000002f000000010000000600000000000000002000000000000000200000000000008047000000000000000000000000000000010000000000000000000000000000350000000600000003000000000000008077000000000000806700000000000070000000000000000500000000000000080000000000000010000000000000003e000000080000000300000000000000f077000000000000f06700000000000010080000000000000000000000000000010000000000000000000000000000004d000000080000000300000000000000f087000000000000f0670000000000000100000000000000000000000000000001000000000000000000000000000000520000000100000030000000000000000000000000000000f067000000000000b2000000000000000000000000000000010000000000000001000000000000005b0000000200000000000000000000000000000000000000a86800000000000038010000000000000e0000000400000008000000000000001800000000000000630000000300000000000000000000000000000000000000e06900000000000075000000000000000000000000000000010000000000000000000000000000006d0000000300000000000000000000000000000000000000556a000000000000c200000000000000000000000000000001000000000000000000000000000000"> : vector<3392xi8>
          }>
        ]
      })
    util.return %4 : tensor<1xi64>
  }

  // Custom matcher for argmax operations equivalent to the custom kernel. This
  // matcher will be run one-by-one on all operations contained within the
  // target function. On success, it will return the handle to the matched
  // argmax operation.
  transform.named_sequence @match_argmax(%generic: !transform.any_op {transform.readonly}) -> (!transform.any_op) {
    // Fail fast on non-linalg generics.
    transform.match.operation_name %generic ["linalg.generic"] : !transform.any_op
    %matched = transform.match.structured failures(propagate) %generic : (!transform.any_op) -> (!transform.any_op) {
    ^bb1(%argmax: !transform.any_op):
      // Verify that the rank (i.e. number of loops) of the linalg op is 2,
      // with one parallel iterator and one reduction iterator.
      // TODO: Add optionality for the parallel dimensions.
      %c2 = transform.param.constant 2 : i64 -> !transform.param<i64>
      %rank = transform.match.structured.rank %argmax : (!transform.any_op) -> !transform.param<i64>
      transform.match.param.cmpi eq %rank, %c2 : !transform.param<i64>
      transform.match.structured.dim %argmax[0] {parallel} : !transform.any_op
      transform.match.structured.dim %argmax[-1] {reduction} : !transform.any_op

      // Verify a single input (target vector to compute the argmax of) and two
      // outputs, one for the maximum value and one for the index.
      %c1 = transform.param.constant 1 : i64 -> !transform.param<i64>
      %n_inputs = transform.match.structured.num_inputs %argmax : (!transform.any_op) -> !transform.param<i64>
      transform.match.param.cmpi eq %n_inputs, %c1 : !transform.param<i64>
      %n_outputs = transform.match.structured.num_inits %argmax : (!transform.any_op) -> !transform.param<i64>
      transform.match.param.cmpi eq %n_outputs, %c2 : !transform.param<i64>
  
      transform.match.structured.yield %argmax : !transform.any_op 
    }

    // Verify the operand shapes of the linalg op. For example, in the below,
    // dim 0 must be statically 1, and dim 1 must be statically divisible by 64.
    %in0 = transform.get_operand %matched[0] : (!transform.any_op) -> !transform.any_value
    transform.iree.match.cast_compatible_type %in0 = tensor<1x?xf32> : !transform.any_value
    transform.iree.match.dim_is_multiple_of %in0[1], 64 : !transform.any_value
    %out0 = transform.get_operand %matched[1] : (!transform.any_op) -> !transform.any_value
    transform.iree.match.cast_compatible_type %out0 = tensor<1xf32> : !transform.any_value
    %out1 = transform.get_operand %matched[2] : (!transform.any_op) -> !transform.any_value
    transform.iree.match.cast_compatible_type %out1 = tensor<1xi64> : !transform.any_value

    // Verify the region of the argmax op. This does a structural comparison of
    // region(s) of the payload operation against the single operation contained
    // within the body of this operation. This does no verification of other
    // input types/attributes. This is because typically for kernel matching,
    // the most important part to get exactly right is the inner loop. Otherwise
    // small variations to shape information and iterator counts and such are
    // better suited for more general matchers.
    transform.iree.match.regions %matched : !transform.any_op {
      ^bb0(%target: tensor<1x?xf32>, %empty_max: tensor<1xf32>, %empty_idx: tensor<1xi64>):
        %5:2 = linalg.generic {indexing_maps = [affine_map<(d0, d1) -> (d0, d1)>,
                                                affine_map<(d0, d1) -> (d0)>,
                                                affine_map<(d0, d1) -> (d0)>],
                               iterator_types = ["parallel", "reduction"]}
                               ins(%target : tensor<1x?xf32>)
                               outs(%empty_max, %empty_idx : tensor<1xf32>, tensor<1xi64>) {
        ^bb0(%in: f32, %out: f32, %out_0: i64):
          %6 = linalg.index 1 : index
          %7 = arith.index_cast %6 : index to i64
          %8 = arith.maximumf %in, %out : f32
          %9 = arith.cmpf ogt, %in, %out : f32
          %10 = arith.select %9, %7, %out_0 : i64
          linalg.yield %8, %10 : f32, i64
        } -> (tensor<1xf32>, tensor<1xi64>)
    }
    transform.yield %generic : !transform.any_op
  }

  // Rewrite callback for `transform.foreach_match`. The input signature for
  // this sequence must match exactly with the outputs of the matcher. In this
  // case we just take the argmax as an input, import the entry point for the
  // custom kernel authored above, and replace the users of the argmax with a
  // call to the function.
  transform.named_sequence @cast_and_call_argmax(%argmax: !transform.any_op {transform.readonly}) {
    %module = transform.util.get_nearest_symbol_table %argmax : (!transform.any_op) -> !transform.any_op
    %func = transform.util.import_symbol @argmax_1d_f32_entry_point into %module if undefined : (!transform.any_op) -> !transform.any_op
    %ins = transform.get_operand %argmax[0] : (!transform.any_op) -> !transform.any_value
    %outs = transform.get_result %argmax[1] : (!transform.any_op) -> !transform.any_value
    transform.util.cast_and_call %func(%ins) -> %outs before %argmax {
          // This specifies how to resolve type mismatches between the arguments
          // of the function and the inputs to the argmax. In this example, the
          // only casts this will generate are same-rank tensor casts that drop
          // static information.
          transform.type_conversion.tensor.cast_shape_dynamic_dims
      } : (!transform.any_op, !transform.any_value, !transform.any_value, !transform.any_op) -> !transform.any_op
    transform.yield
  }

  // Entry point for the transform interpreter, nested on the full module. This
  // is because the rewrites needed for importing the custom kernel needs to
  // add a new symbol to the module's symbol table.
  transform.named_sequence @__transform_main(%module: !transform.any_op) {
    // Gather the set of functions within the module.
    %funcs = transform.structured.match ops{["util.func"]} in %module : (!transform.any_op) -> !transform.any_op   
    // For each function in the module, run the matcher on all contained
    // operations.
    transform.foreach %funcs : !transform.any_op {
      ^bb1(%func: !transform.any_op):
        transform.foreach_match in %func
            // <matcher name> -> <rewriter name>
            // Multiple matcher-action pairs can be specified comma separated,
            // here we are only doing a single kind of match and replace.
            //
            // Note that the operations within the module are walked in
            // post-order, meaning actions must be very careful in their
            // replacements not to modify successors of operations. Nested
            // regions and DAG roots will be visited last so it is safest to
            // do matching + replacement on the root of the DAG rather than
            // trying to look ahead. The other option is to avoid dce/cse until
            // after the walk is complete.
            @match_argmax -> @cast_and_call_argmax
          : (!transform.any_op) -> (!transform.any_op)
    }
    // Cleanup now dead instances of argmax.
    transform.apply_dce to %module : !transform.any_op
    transform.yield
  }
}
